#ifndef FOREST_MODEL_ESP32_H
#define FOREST_MODEL_ESP32_H

/*
 Author: Mouli Sankaran 
 CAUTION: This is an auto generated file.
 DO NOT EDIT OR MAKE ANY CHANGES TO it.
 This model data was generated on Tue Oct 29 22:38:08 2024

 Tools used:
 Python: 3.12.4 | packaged by Anaconda, Inc. | (main, Jun 18 2024, 15:03:56) [MSC v.1929 64 bit (AMD64)]
 Numpy: 1.26.4
 TensorFlow: 2.17.0
 Keras: 3.5.0

 Model details are:
 NUM_OF_EPOCHS = 100
 BATCH_SIZE    = 16
*/

const int DENSE1_SIZE = 16;
const int DENSE2_SIZE = 8;

const unsigned int forest_model_esp32_len = 4744;
alignas(8) const unsigned char forest_model_esp32[] = {
0x1c,0x00,0x00,0x00,0x54,0x46,0x4c,0x33,0x14,0x00,0x20,0x00,
0x1c,0x00,0x18,0x00,0x14,0x00,0x10,0x00,0x0c,0x00,0x00,0x00,
0x08,0x00,0x04,0x00,0x14,0x00,0x00,0x00,0x1c,0x00,0x00,0x00,
0x8c,0x00,0x00,0x00,0x0c,0x01,0x00,0x00,0x64,0x04,0x00,0x00,
0x74,0x04,0x00,0x00,0xdc,0x11,0x00,0x00,0x03,0x00,0x00,0x00,
0x01,0x00,0x00,0x00,0x04,0x00,0x00,0x00,0xf2,0xf9,0xff,0xff,
0x0c,0x00,0x00,0x00,0x1c,0x00,0x00,0x00,0x3c,0x00,0x00,0x00,
0x0f,0x00,0x00,0x00,0x73,0x65,0x72,0x76,0x69,0x6e,0x67,0x5f,
0x64,0x65,0x66,0x61,0x75,0x6c,0x74,0x00,0x01,0x00,0x00,0x00,
0x04,0x00,0x00,0x00,0x68,0xff,0xff,0xff,0x11,0x00,0x00,0x00,
0x04,0x00,0x00,0x00,0x08,0x00,0x00,0x00,0x6f,0x75,0x74,0x70,
0x75,0x74,0x5f,0x30,0x00,0x00,0x00,0x00,0x01,0x00,0x00,0x00,
0x04,0x00,0x00,0x00,0x56,0xfb,0xff,0xff,0x04,0x00,0x00,0x00,
0x0c,0x00,0x00,0x00,0x6b,0x65,0x72,0x61,0x73,0x5f,0x74,0x65,
0x6e,0x73,0x6f,0x72,0x00,0x00,0x00,0x00,0x03,0x00,0x00,0x00,
0x5c,0x00,0x00,0x00,0x2c,0x00,0x00,0x00,0x04,0x00,0x00,0x00,
0xb8,0xff,0xff,0xff,0x15,0x00,0x00,0x00,0x04,0x00,0x00,0x00,
0x13,0x00,0x00,0x00,0x43,0x4f,0x4e,0x56,0x45,0x52,0x53,0x49,
0x4f,0x4e,0x5f,0x4d,0x45,0x54,0x41,0x44,0x41,0x54,0x41,0x00,
0xdc,0xff,0xff,0xff,0x14,0x00,0x00,0x00,0x04,0x00,0x00,0x00,
0x13,0x00,0x00,0x00,0x6d,0x69,0x6e,0x5f,0x72,0x75,0x6e,0x74,
0x69,0x6d,0x65,0x5f,0x76,0x65,0x72,0x73,0x69,0x6f,0x6e,0x00,
0x08,0x00,0x0c,0x00,0x08,0x00,0x04,0x00,0x08,0x00,0x00,0x00,
0x13,0x00,0x00,0x00,0x04,0x00,0x00,0x00,0x13,0x00,0x00,0x00,
0x6d,0x69,0x6e,0x5f,0x72,0x75,0x6e,0x74,0x69,0x6d,0x65,0x5f,
0x76,0x65,0x72,0x73,0x69,0x6f,0x6e,0x00,0x16,0x00,0x00,0x00,
0x54,0x03,0x00,0x00,0x4c,0x03,0x00,0x00,0x34,0x03,0x00,0x00,
0x14,0x03,0x00,0x00,0xf4,0x02,0x00,0x00,0xd4,0x02,0x00,0x00,
0xa4,0x02,0x00,0x00,0x74,0x02,0x00,0x00,0xe4,0x01,0x00,0x00,
0x94,0x01,0x00,0x00,0xf4,0x00,0x00,0x00,0xec,0x00,0x00,0x00,
0xe4,0x00,0x00,0x00,0xdc,0x00,0x00,0x00,0xd4,0x00,0x00,0x00,
0xcc,0x00,0x00,0x00,0xc4,0x00,0x00,0x00,0xbc,0x00,0x00,0x00,
0xb4,0x00,0x00,0x00,0x94,0x00,0x00,0x00,0x74,0x00,0x00,0x00,
0x04,0x00,0x00,0x00,0x52,0xfc,0xff,0xff,0x04,0x00,0x00,0x00,
0x60,0x00,0x00,0x00,0x0c,0x00,0x00,0x00,0x08,0x00,0x0e,0x00,
0x08,0x00,0x04,0x00,0x08,0x00,0x00,0x00,0x10,0x00,0x00,0x00,
0x28,0x00,0x00,0x00,0x00,0x00,0x06,0x00,0x08,0x00,0x04,0x00,
0x06,0x00,0x00,0x00,0x04,0x00,0x00,0x00,0x01,0x00,0x00,0x00,
0xeb,0x03,0x00,0x00,0x0c,0x00,0x18,0x00,0x14,0x00,0x10,0x00,
0x0c,0x00,0x04,0x00,0x0c,0x00,0x00,0x00,0x81,0x13,0x22,0x22,
0x00,0x66,0x3b,0x12,0x02,0x00,0x00,0x00,0x02,0x00,0x00,0x00,
0x04,0x00,0x00,0x00,0x06,0x00,0x00,0x00,0x32,0x2e,0x31,0x37,
0x2e,0x30,0x00,0x00,0xbe,0xfc,0xff,0xff,0x04,0x00,0x00,0x00,
0x10,0x00,0x00,0x00,0x00,0x00,0x00,0x00,0x00,0x00,0x00,0x00,
0x00,0x00,0x00,0x00,0x00,0x00,0x00,0x00,0xda,0xfc,0xff,0xff,
0x04,0x00,0x00,0x00,0x10,0x00,0x00,0x00,0x31,0x2e,0x31,0x34,
0x2e,0x30,0x00,0x00,0x00,0x00,0x00,0x00,0x00,0x00,0x00,0x00,
0x5c,0xf0,0xff,0xff,0x60,0xf0,0xff,0xff,0x64,0xf0,0xff,0xff,
0x68,0xf0,0xff,0xff,0x6c,0xf0,0xff,0xff,0x70,0xf0,0xff,0xff,
0x74,0xf0,0xff,0xff,0x78,0xf0,0xff,0xff,0x16,0xfd,0xff,0xff,
0x04,0x00,0x00,0x00,0x90,0x00,0x00,0x00,0xb5,0x35,0xdb,0x81,
0x2d,0xe1,0x65,0xd5,0x92,0x5d,0x7f,0x64,0x45,0x73,0x38,0xce,
0x4e,0x50,0xec,0x81,0xa1,0x89,0x2f,0xc2,0x9b,0x69,0xe1,0x7f,
0x9d,0xc9,0x0b,0x14,0x21,0xb7,0xe1,0xdc,0xb5,0xcf,0x83,0x93,
0x81,0x9e,0xf3,0x1e,0x01,0x7f,0xe0,0x2b,0xfc,0xfb,0xf8,0xde,
0xca,0x0f,0x12,0x99,0xa6,0xd9,0x06,0x81,0x74,0x9a,0xaa,0xba,
0x17,0x37,0x5a,0x0f,0xd4,0x55,0x7f,0x1a,0x81,0x43,0xb9,0xc7,
0x44,0xcc,0xc2,0xdf,0xc7,0x95,0x27,0x6c,0xf4,0x0c,0x46,0x08,
0x81,0xe4,0xf7,0x0b,0x90,0x2d,0x05,0xbc,0x28,0xc3,0x81,0xda,
0x5d,0x30,0x1c,0xbc,0xdc,0x7f,0xa7,0xd8,0x45,0x81,0xb8,0xed,
0x13,0xac,0x34,0x03,0xb8,0xff,0x81,0x6d,0xe3,0x74,0x2f,0xe1,
0xc5,0x49,0x64,0x01,0x1e,0xf3,0x18,0x7f,0x0a,0x58,0x19,0x00,
0x2a,0x6e,0x03,0x24,0xf3,0xd4,0x7f,0x75,0xb2,0xfd,0xff,0xff,
0x04,0x00,0x00,0x00,0x40,0x00,0x00,0x00,0xbe,0x02,0x00,0x00,
0xe6,0x02,0x00,0x00,0x5e,0x04,0x00,0x00,0x94,0x01,0x00,0x00,
0x8e,0x04,0x00,0x00,0xe3,0x00,0x00,0x00,0x27,0x06,0x00,0x00,
0x60,0xfe,0xff,0xff,0x12,0x03,0x00,0x00,0xcb,0x02,0x00,0x00,
0x55,0x05,0x00,0x00,0xa4,0x04,0x00,0x00,0x06,0x05,0x00,0x00,
0x81,0xff,0xff,0xff,0x39,0x02,0x00,0x00,0xec,0x03,0x00,0x00,
0xfe,0xfd,0xff,0xff,0x04,0x00,0x00,0x00,0x80,0x00,0x00,0x00,
0x81,0x64,0xcb,0x5b,0x53,0x5d,0x3a,0xe9,0xa8,0xc7,0xef,0x58,
0x75,0x14,0x7f,0xc7,0x1f,0x0d,0x1a,0xf1,0xea,0x3d,0xaa,0xbd,
0x5e,0xf2,0x25,0x21,0x81,0xac,0x5f,0x4c,0xa9,0x90,0x60,0x18,
0x3d,0xe6,0x79,0xd7,0xb0,0x84,0x63,0x17,0x7f,0x52,0x23,0x3a,
0xf2,0x46,0xd3,0xdb,0x39,0xf0,0xc2,0x3e,0x26,0x0e,0x33,0x6f,
0xa1,0x13,0x7f,0x39,0x0d,0x2c,0x51,0x13,0x5e,0xd8,0xd9,0xb6,
0x5f,0xb6,0x34,0x81,0xe0,0x2a,0x1d,0xd3,0x62,0xf1,0xe6,0x44,
0xf5,0x5a,0x68,0xc1,0x21,0x5f,0x59,0x7f,0x0d,0xd8,0xdc,0xb6,
0x06,0x36,0xd2,0xd6,0xfb,0xf9,0xaf,0xec,0xb0,0x24,0x88,0x50,
0x60,0x21,0x70,0x7f,0x09,0xba,0x9f,0x0e,0xb3,0x6d,0x81,0xdc,
0x2d,0x21,0xc4,0xe3,0x18,0xd5,0xc8,0x20,0x8a,0xfe,0xff,0xff,
0x04,0x00,0x00,0x00,0x20,0x00,0x00,0x00,0x03,0x02,0x00,0x00,
0xaf,0xfe,0xff,0xff,0x10,0x03,0x00,0x00,0xc1,0x02,0x00,0x00,
0xf6,0x00,0x00,0x00,0xf0,0x02,0x00,0x00,0x09,0x02,0x00,0x00,
0x05,0xfe,0xff,0xff,0xb6,0xfe,0xff,0xff,0x04,0x00,0x00,0x00,
0x20,0x00,0x00,0x00,0x3e,0x11,0xea,0xea,0x81,0x61,0xc9,0xcc,
0x1d,0x85,0x7a,0x85,0x7f,0x2d,0x5f,0x3c,0x4b,0x0b,0x04,0x63,
0x81,0xba,0x4b,0x1b,0xbf,0xca,0xb5,0x3a,0x55,0x7f,0x56,0xb7,
0xe2,0xfe,0xff,0xff,0x04,0x00,0x00,0x00,0x10,0x00,0x00,0x00,
0xe1,0x00,0x00,0x00,0x42,0x01,0x00,0x00,0x83,0x01,0x00,0x00,
0x40,0x01,0x00,0x00,0xfe,0xfe,0xff,0xff,0x04,0x00,0x00,0x00,
0x10,0x00,0x00,0x00,0x0a,0x81,0x93,0x6c,0x49,0x17,0x12,0x81,
0x83,0x88,0x7f,0xd7,0x81,0x3f,0xa8,0xd7,0x1a,0xff,0xff,0xff,
0x04,0x00,0x00,0x00,0x10,0x00,0x00,0x00,0x9b,0xff,0xff,0xff,
0x14,0xff,0xff,0xff,0x78,0x01,0x00,0x00,0xd5,0xff,0xff,0xff,
0x36,0xff,0xff,0xff,0x04,0x00,0x00,0x00,0x08,0x00,0x00,0x00,
0xff,0xff,0xff,0xff,0x09,0x00,0x00,0x00,0xb0,0xf2,0xff,0xff,
0xb4,0xf2,0xff,0xff,0x0f,0x00,0x00,0x00,0x4d,0x4c,0x49,0x52,
0x20,0x43,0x6f,0x6e,0x76,0x65,0x72,0x74,0x65,0x64,0x2e,0x00,
0x01,0x00,0x00,0x00,0x14,0x00,0x00,0x00,0x00,0x00,0x0e,0x00,
0x18,0x00,0x14,0x00,0x10,0x00,0x0c,0x00,0x08,0x00,0x04,0x00,
0x0e,0x00,0x00,0x00,0x14,0x00,0x00,0x00,0x1c,0x00,0x00,0x00,
0xe0,0x01,0x00,0x00,0xe4,0x01,0x00,0x00,0xe8,0x01,0x00,0x00,
0x04,0x00,0x00,0x00,0x6d,0x61,0x69,0x6e,0x00,0x00,0x00,0x00,
0x08,0x00,0x00,0x00,0xa8,0x01,0x00,0x00,0x74,0x01,0x00,0x00,
0x24,0x01,0x00,0x00,0xd8,0x00,0x00,0x00,0x9c,0x00,0x00,0x00,
0x64,0x00,0x00,0x00,0x28,0x00,0x00,0x00,0x04,0x00,0x00,0x00,
0xb2,0xfe,0xff,0xff,0x0c,0x00,0x00,0x00,0x10,0x00,0x00,0x00,
0x04,0x00,0x00,0x00,0x01,0x00,0x00,0x00,0x11,0x00,0x00,0x00,
0x01,0x00,0x00,0x00,0x10,0x00,0x00,0x00,0x22,0xff,0xff,0xff,
0x1c,0x00,0x00,0x00,0x00,0x00,0x00,0x09,0x1c,0x00,0x00,0x00,
0x20,0x00,0x00,0x00,0x03,0x00,0x00,0x00,0x00,0x00,0x06,0x00,
0x08,0x00,0x04,0x00,0x06,0x00,0x00,0x00,0x00,0x00,0x80,0x3f,
0x01,0x00,0x00,0x00,0x10,0x00,0x00,0x00,0x01,0x00,0x00,0x00,
0x0f,0x00,0x00,0x00,0x5a,0xff,0xff,0xff,0x14,0x00,0x00,0x00,
0x00,0x00,0x00,0x08,0x10,0x00,0x00,0x00,0x14,0x00,0x00,0x00,
0x02,0x00,0x00,0x00,0x9c,0xf3,0xff,0xff,0x01,0x00,0x00,0x00,
0x0f,0x00,0x00,0x00,0x03,0x00,0x00,0x00,0x0e,0x00,0x00,0x00,
0x03,0x00,0x00,0x00,0x02,0x00,0x00,0x00,0x8e,0xff,0xff,0xff,
0x14,0x00,0x00,0x00,0x00,0x00,0x00,0x08,0x14,0x00,0x00,0x00,
0x18,0x00,0x00,0x00,0x02,0x00,0x00,0x00,0x7e,0xff,0xff,0xff,
0x00,0x00,0x00,0x01,0x01,0x00,0x00,0x00,0x0e,0x00,0x00,0x00,
0x03,0x00,0x00,0x00,0x0d,0x00,0x00,0x00,0x05,0x00,0x00,0x00,
0x04,0x00,0x00,0x00,0xc6,0xff,0xff,0xff,0x14,0x00,0x00,0x00,
0x00,0x00,0x00,0x08,0x14,0x00,0x00,0x00,0x18,0x00,0x00,0x00,
0x02,0x00,0x00,0x00,0xb6,0xff,0xff,0xff,0x00,0x00,0x00,0x01,
0x01,0x00,0x00,0x00,0x0d,0x00,0x00,0x00,0x03,0x00,0x00,0x00,
0x0c,0x00,0x00,0x00,0x07,0x00,0x00,0x00,0x06,0x00,0x00,0x00,
0x00,0x00,0x0e,0x00,0x1a,0x00,0x14,0x00,0x10,0x00,0x0c,0x00,
0x0b,0x00,0x04,0x00,0x0e,0x00,0x00,0x00,0x1c,0x00,0x00,0x00,
0x00,0x00,0x00,0x08,0x1c,0x00,0x00,0x00,0x20,0x00,0x00,0x00,
0x02,0x00,0x00,0x00,0x00,0x00,0x06,0x00,0x08,0x00,0x07,0x00,
0x06,0x00,0x00,0x00,0x00,0x00,0x00,0x01,0x01,0x00,0x00,0x00,
0x0c,0x00,0x00,0x00,0x03,0x00,0x00,0x00,0x0b,0x00,0x00,0x00,
0x09,0x00,0x00,0x00,0x08,0x00,0x00,0x00,0x00,0x00,0x0a,0x00,
0x10,0x00,0x0c,0x00,0x08,0x00,0x04,0x00,0x0a,0x00,0x00,0x00,
0x0c,0x00,0x00,0x00,0x10,0x00,0x00,0x00,0x01,0x00,0x00,0x00,
0x01,0x00,0x00,0x00,0x0b,0x00,0x00,0x00,0x02,0x00,0x00,0x00,
0x0a,0x00,0x00,0x00,0x01,0x00,0x00,0x00,0x00,0x00,0x0a,0x00,
0x0c,0x00,0x00,0x00,0x08,0x00,0x04,0x00,0x0a,0x00,0x00,0x00,
0x08,0x00,0x00,0x00,0x0c,0x00,0x00,0x00,0x01,0x00,0x00,0x00,
0x0a,0x00,0x00,0x00,0x01,0x00,0x00,0x00,0x00,0x00,0x00,0x00,
0x01,0x00,0x00,0x00,0x11,0x00,0x00,0x00,0x01,0x00,0x00,0x00,
0x00,0x00,0x00,0x00,0x12,0x00,0x00,0x00,0xf4,0x0a,0x00,0x00,
0x9c,0x0a,0x00,0x00,0xf4,0x09,0x00,0x00,0x6c,0x09,0x00,0x00,
0xe8,0x08,0x00,0x00,0x5c,0x08,0x00,0x00,0xa8,0x07,0x00,0x00,
0xec,0x06,0x00,0x00,0xd8,0x05,0x00,0x00,0xbc,0x04,0x00,0x00,
0x48,0x04,0x00,0x00,0xac,0x03,0x00,0x00,0xf8,0x02,0x00,0x00,
0x3c,0x02,0x00,0x00,0x80,0x01,0x00,0x00,0xe4,0x00,0x00,0x00,
0x60,0x00,0x00,0x00,0x04,0x00,0x00,0x00,0x6a,0xf5,0xff,0xff,
0x00,0x00,0x00,0x01,0x14,0x00,0x00,0x00,0x1c,0x00,0x00,0x00,
0x1c,0x00,0x00,0x00,0x12,0x00,0x00,0x00,0x34,0x00,0x00,0x00,
0x02,0x00,0x00,0x00,0xff,0xff,0xff,0xff,0x04,0x00,0x00,0x00,
0x54,0xf5,0xff,0xff,0x1b,0x00,0x00,0x00,0x53,0x74,0x61,0x74,
0x65,0x66,0x75,0x6c,0x50,0x61,0x72,0x74,0x69,0x74,0x69,0x6f,
0x6e,0x65,0x64,0x43,0x61,0x6c,0x6c,0x5f,0x31,0x3a,0x30,0x00,
0x02,0x00,0x00,0x00,0x01,0x00,0x00,0x00,0x04,0x00,0x00,0x00,
0x46,0xfc,0xff,0xff,0x00,0x00,0x00,0x01,0x18,0x00,0x00,0x00,
0x20,0x00,0x00,0x00,0x40,0x00,0x00,0x00,0x11,0x00,0x00,0x00,
0x00,0x00,0x00,0x09,0x58,0x00,0x00,0x00,0x02,0x00,0x00,0x00,
0xff,0xff,0xff,0xff,0x04,0x00,0x00,0x00,0xb4,0xf6,0xff,0xff,
0x08,0x00,0x00,0x00,0x14,0x00,0x00,0x00,0x01,0x00,0x00,0x00,
0x80,0xff,0xff,0xff,0xff,0xff,0xff,0xff,0x00,0x00,0x00,0x00,
0x01,0x00,0x00,0x00,0x00,0x00,0x80,0x3b,0x1c,0x00,0x00,0x00,
0x53,0x74,0x61,0x74,0x65,0x66,0x75,0x6c,0x50,0x61,0x72,0x74,
0x69,0x74,0x69,0x6f,0x6e,0x65,0x64,0x43,0x61,0x6c,0x6c,0x5f,
0x31,0x3a,0x30,0x31,0x00,0x00,0x00,0x00,0x02,0x00,0x00,0x00,
0x01,0x00,0x00,0x00,0x04,0x00,0x00,0x00,0xc6,0xfc,0xff,0xff,
0x00,0x00,0x00,0x01,0x18,0x00,0x00,0x00,0x20,0x00,0x00,0x00,
0x3c,0x00,0x00,0x00,0x10,0x00,0x00,0x00,0x00,0x00,0x00,0x09,
0x70,0x00,0x00,0x00,0x02,0x00,0x00,0x00,0xff,0xff,0xff,0xff,
0x04,0x00,0x00,0x00,0x34,0xf7,0xff,0xff,0x08,0x00,0x00,0x00,
0x10,0x00,0x00,0x00,0x01,0x00,0x00,0x00,0x01,0x00,0x00,0x00,
0x00,0x00,0x00,0x00,0x01,0x00,0x00,0x00,0x53,0x9e,0xed,0x3d,
0x38,0x00,0x00,0x00,0x73,0x65,0x71,0x75,0x65,0x6e,0x74,0x69,
0x61,0x6c,0x5f,0x31,0x2f,0x64,0x65,0x6e,0x73,0x65,0x5f,0x33,
0x5f,0x31,0x2f,0x4d,0x61,0x74,0x4d,0x75,0x6c,0x3b,0x73,0x65,
0x71,0x75,0x65,0x6e,0x74,0x69,0x61,0x6c,0x5f,0x31,0x2f,0x64,
0x65,0x6e,0x73,0x65,0x5f,0x33,0x5f,0x31,0x2f,0x41,0x64,0x64,
0x00,0x00,0x00,0x00,0x02,0x00,0x00,0x00,0x01,0x00,0x00,0x00,
0x04,0x00,0x00,0x00,0x5e,0xfd,0xff,0xff,0x00,0x00,0x00,0x01,
0x18,0x00,0x00,0x00,0x20,0x00,0x00,0x00,0x40,0x00,0x00,0x00,
0x0f,0x00,0x00,0x00,0x00,0x00,0x00,0x09,0x90,0x00,0x00,0x00,
0x02,0x00,0x00,0x00,0xff,0xff,0xff,0xff,0x04,0x00,0x00,0x00,
0xcc,0xf7,0xff,0xff,0x08,0x00,0x00,0x00,0x14,0x00,0x00,0x00,
0x01,0x00,0x00,0x00,0x80,0xff,0xff,0xff,0xff,0xff,0xff,0xff,
0x00,0x00,0x00,0x00,0x01,0x00,0x00,0x00,0xcc,0x2f,0x8c,0x3d,
0x54,0x00,0x00,0x00,0x73,0x65,0x71,0x75,0x65,0x6e,0x74,0x69,
0x61,0x6c,0x5f,0x31,0x2f,0x64,0x65,0x6e,0x73,0x65,0x5f,0x32,
0x5f,0x31,0x2f,0x4d,0x61,0x74,0x4d,0x75,0x6c,0x3b,0x73,0x65,
0x71,0x75,0x65,0x6e,0x74,0x69,0x61,0x6c,0x5f,0x31,0x2f,0x64,
0x65,0x6e,0x73,0x65,0x5f,0x32,0x5f,0x31,0x2f,0x52,0x65,0x6c,
0x75,0x3b,0x73,0x65,0x71,0x75,0x65,0x6e,0x74,0x69,0x61,0x6c,
0x5f,0x31,0x2f,0x64,0x65,0x6e,0x73,0x65,0x5f,0x32,0x5f,0x31,
0x2f,0x41,0x64,0x64,0x00,0x00,0x00,0x00,0x02,0x00,0x00,0x00,
0x01,0x00,0x00,0x00,0x04,0x00,0x00,0x00,0x16,0xfe,0xff,0xff,
0x00,0x00,0x00,0x01,0x18,0x00,0x00,0x00,0x20,0x00,0x00,0x00,
0x40,0x00,0x00,0x00,0x0e,0x00,0x00,0x00,0x00,0x00,0x00,0x09,
0x90,0x00,0x00,0x00,0x02,0x00,0x00,0x00,0xff,0xff,0xff,0xff,
0x08,0x00,0x00,0x00,0x84,0xf8,0xff,0xff,0x08,0x00,0x00,0x00,
0x14,0x00,0x00,0x00,0x01,0x00,0x00,0x00,0x80,0xff,0xff,0xff,
0xff,0xff,0xff,0xff,0x00,0x00,0x00,0x00,0x01,0x00,0x00,0x00,
0xa2,0xe2,0x81,0x3d,0x54,0x00,0x00,0x00,0x73,0x65,0x71,0x75,
0x65,0x6e,0x74,0x69,0x61,0x6c,0x5f,0x31,0x2f,0x64,0x65,0x6e,
0x73,0x65,0x5f,0x31,0x5f,0x32,0x2f,0x4d,0x61,0x74,0x4d,0x75,
0x6c,0x3b,0x73,0x65,0x71,0x75,0x65,0x6e,0x74,0x69,0x61,0x6c,
0x5f,0x31,0x2f,0x64,0x65,0x6e,0x73,0x65,0x5f,0x31,0x5f,0x32,
0x2f,0x52,0x65,0x6c,0x75,0x3b,0x73,0x65,0x71,0x75,0x65,0x6e,
0x74,0x69,0x61,0x6c,0x5f,0x31,0x2f,0x64,0x65,0x6e,0x73,0x65,
0x5f,0x31,0x5f,0x32,0x2f,0x41,0x64,0x64,0x00,0x00,0x00,0x00,
0x02,0x00,0x00,0x00,0x01,0x00,0x00,0x00,0x08,0x00,0x00,0x00,
0xce,0xfe,0xff,0xff,0x00,0x00,0x00,0x01,0x18,0x00,0x00,0x00,
0x20,0x00,0x00,0x00,0x40,0x00,0x00,0x00,0x0d,0x00,0x00,0x00,
0x00,0x00,0x00,0x09,0x88,0x00,0x00,0x00,0x02,0x00,0x00,0x00,
0xff,0xff,0xff,0xff,0x10,0x00,0x00,0x00,0x3c,0xf9,0xff,0xff,
0x08,0x00,0x00,0x00,0x14,0x00,0x00,0x00,0x01,0x00,0x00,0x00,
0x80,0xff,0xff,0xff,0xff,0xff,0xff,0xff,0x00,0x00,0x00,0x00,
0x01,0x00,0x00,0x00,0xd3,0x69,0x29,0x3d,0x4e,0x00,0x00,0x00,
0x73,0x65,0x71,0x75,0x65,0x6e,0x74,0x69,0x61,0x6c,0x5f,0x31,
0x2f,0x64,0x65,0x6e,0x73,0x65,0x5f,0x31,0x2f,0x4d,0x61,0x74,
0x4d,0x75,0x6c,0x3b,0x73,0x65,0x71,0x75,0x65,0x6e,0x74,0x69,
0x61,0x6c,0x5f,0x31,0x2f,0x64,0x65,0x6e,0x73,0x65,0x5f,0x31,
0x2f,0x52,0x65,0x6c,0x75,0x3b,0x73,0x65,0x71,0x75,0x65,0x6e,
0x74,0x69,0x61,0x6c,0x5f,0x31,0x2f,0x64,0x65,0x6e,0x73,0x65,
0x5f,0x31,0x2f,0x41,0x64,0x64,0x00,0x00,0x02,0x00,0x00,0x00,
0x01,0x00,0x00,0x00,0x10,0x00,0x00,0x00,0x7e,0xff,0xff,0xff,
0x00,0x00,0x00,0x01,0x18,0x00,0x00,0x00,0x20,0x00,0x00,0x00,
0x40,0x00,0x00,0x00,0x0c,0x00,0x00,0x00,0x00,0x00,0x00,0x09,
0x58,0x00,0x00,0x00,0x02,0x00,0x00,0x00,0xff,0xff,0xff,0xff,
0x09,0x00,0x00,0x00,0xec,0xf9,0xff,0xff,0x08,0x00,0x00,0x00,
0x14,0x00,0x00,0x00,0x01,0x00,0x00,0x00,0xbc,0xff,0xff,0xff,
0xff,0xff,0xff,0xff,0x00,0x00,0x00,0x00,0x01,0x00,0x00,0x00,
0x83,0xe0,0x20,0x3d,0x1e,0x00,0x00,0x00,0x73,0x65,0x71,0x75,
0x65,0x6e,0x74,0x69,0x61,0x6c,0x5f,0x31,0x2f,0x66,0x6c,0x61,
0x74,0x74,0x65,0x6e,0x5f,0x31,0x2f,0x52,0x65,0x73,0x68,0x61,
0x70,0x65,0x00,0x00,0x02,0x00,0x00,0x00,0x01,0x00,0x00,0x00,
0x09,0x00,0x00,0x00,0x00,0x00,0x16,0x00,0x20,0x00,0x1c,0x00,
0x1b,0x00,0x14,0x00,0x10,0x00,0x0c,0x00,0x00,0x00,0x00,0x00,
0x08,0x00,0x07,0x00,0x16,0x00,0x00,0x00,0x00,0x00,0x00,0x01,
0x18,0x00,0x00,0x00,0x20,0x00,0x00,0x00,0x40,0x00,0x00,0x00,
0x0b,0x00,0x00,0x00,0x00,0x00,0x00,0x09,0x48,0x00,0x00,0x00,
0x02,0x00,0x00,0x00,0xff,0xff,0xff,0xff,0x09,0x00,0x00,0x00,
0x84,0xfa,0xff,0xff,0x08,0x00,0x00,0x00,0x14,0x00,0x00,0x00,
0x01,0x00,0x00,0x00,0xbc,0xff,0xff,0xff,0xff,0xff,0xff,0xff,
0x00,0x00,0x00,0x00,0x01,0x00,0x00,0x00,0x83,0xe0,0x20,0x3d,
0x0c,0x00,0x00,0x00,0x74,0x66,0x6c,0x2e,0x71,0x75,0x61,0x6e,
0x74,0x69,0x7a,0x65,0x00,0x00,0x00,0x00,0x02,0x00,0x00,0x00,
0x01,0x00,0x00,0x00,0x09,0x00,0x00,0x00,0x56,0xfa,0xff,0xff,
0x00,0x00,0x00,0x01,0x14,0x00,0x00,0x00,0xe8,0x00,0x00,0x00,
0x0a,0x00,0x00,0x00,0x00,0x00,0x00,0x09,0xf4,0x00,0x00,0x00,
0xe4,0xfa,0xff,0xff,0x08,0x00,0x00,0x00,0x8c,0x00,0x00,0x00,
0x10,0x00,0x00,0x00,0x00,0x00,0x00,0x00,0x00,0x00,0x00,0x00,
0x00,0x00,0x00,0x00,0x00,0x00,0x00,0x00,0x00,0x00,0x00,0x00,
0x00,0x00,0x00,0x00,0x00,0x00,0x00,0x00,0x00,0x00,0x00,0x00,
0x00,0x00,0x00,0x00,0x00,0x00,0x00,0x00,0x00,0x00,0x00,0x00,
0x00,0x00,0x00,0x00,0x00,0x00,0x00,0x00,0x00,0x00,0x00,0x00,
0x00,0x00,0x00,0x00,0x00,0x00,0x00,0x00,0x00,0x00,0x00,0x00,
0x00,0x00,0x00,0x00,0x00,0x00,0x00,0x00,0x00,0x00,0x00,0x00,
0x00,0x00,0x00,0x00,0x00,0x00,0x00,0x00,0x00,0x00,0x00,0x00,
0x00,0x00,0x00,0x00,0x00,0x00,0x00,0x00,0x00,0x00,0x00,0x00,
0x00,0x00,0x00,0x00,0x00,0x00,0x00,0x00,0x00,0x00,0x00,0x00,
0x00,0x00,0x00,0x00,0x00,0x00,0x00,0x00,0x00,0x00,0x00,0x00,
0x00,0x00,0x00,0x00,0x10,0x00,0x00,0x00,0x7b,0xf2,0xb0,0x3b,
0x49,0xd8,0x90,0x3b,0xb2,0x24,0xb7,0x3b,0x8e,0x85,0x9f,0x3b,
0x5d,0x43,0x97,0x3b,0x25,0x0e,0x9a,0x3b,0x14,0x41,0x95,0x3b,
0x34,0xcf,0x8e,0x3b,0xd5,0xb2,0xad,0x3b,0xea,0xe1,0xc4,0x3b,
0x13,0x72,0xb2,0x3b,0xe0,0xe9,0xc3,0x3b,0x55,0xf1,0x90,0x3b,
0xad,0x17,0x6a,0x3b,0xa0,0x0d,0xc9,0x3b,0x0c,0xd0,0x95,0x3b,
0x12,0x00,0x00,0x00,0x74,0x66,0x6c,0x2e,0x70,0x73,0x65,0x75,
0x64,0x6f,0x5f,0x71,0x63,0x6f,0x6e,0x73,0x74,0x37,0x00,0x00,
0x02,0x00,0x00,0x00,0x10,0x00,0x00,0x00,0x09,0x00,0x00,0x00,
0x6e,0xfb,0xff,0xff,0x00,0x00,0x00,0x01,0x14,0x00,0x00,0x00,
0xe4,0x00,0x00,0x00,0x09,0x00,0x00,0x00,0x00,0x00,0x00,0x02,
0xf0,0x00,0x00,0x00,0xfc,0xfb,0xff,0xff,0x08,0x00,0x00,0x00,
0x88,0x00,0x00,0x00,0x10,0x00,0x00,0x00,0x00,0x00,0x00,0x00,
0x00,0x00,0x00,0x00,0x00,0x00,0x00,0x00,0x00,0x00,0x00,0x00,
0x00,0x00,0x00,0x00,0x00,0x00,0x00,0x00,0x00,0x00,0x00,0x00,
0x00,0x00,0x00,0x00,0x00,0x00,0x00,0x00,0x00,0x00,0x00,0x00,
0x00,0x00,0x00,0x00,0x00,0x00,0x00,0x00,0x00,0x00,0x00,0x00,
0x00,0x00,0x00,0x00,0x00,0x00,0x00,0x00,0x00,0x00,0x00,0x00,
0x00,0x00,0x00,0x00,0x00,0x00,0x00,0x00,0x00,0x00,0x00,0x00,
0x00,0x00,0x00,0x00,0x00,0x00,0x00,0x00,0x00,0x00,0x00,0x00,
0x00,0x00,0x00,0x00,0x00,0x00,0x00,0x00,0x00,0x00,0x00,0x00,
0x00,0x00,0x00,0x00,0x00,0x00,0x00,0x00,0x00,0x00,0x00,0x00,
0x00,0x00,0x00,0x00,0x00,0x00,0x00,0x00,0x00,0x00,0x00,0x00,
0x00,0x00,0x00,0x00,0x10,0x00,0x00,0x00,0x77,0x65,0x5e,0x39,
0x6a,0x0c,0x36,0x39,0x1a,0x2f,0x66,0x39,0xbe,0x7e,0x48,0x39,
0x85,0x1d,0x3e,0x39,0xe5,0x9f,0x41,0x39,0x24,0x97,0x3b,0x39,
0x7e,0x7d,0x33,0x39,0x35,0x50,0x5a,0x39,0xb9,0x73,0x77,0x39,
0x96,0x47,0x60,0x39,0xfa,0x3b,0x76,0x39,0xe5,0x2b,0x36,0x39,
0x19,0x1c,0x13,0x39,0xae,0xb1,0x7c,0x39,0xd4,0x4a,0x3c,0x39,
0x12,0x00,0x00,0x00,0x74,0x66,0x6c,0x2e,0x70,0x73,0x65,0x75,
0x64,0x6f,0x5f,0x71,0x63,0x6f,0x6e,0x73,0x74,0x36,0x00,0x00,
0x01,0x00,0x00,0x00,0x10,0x00,0x00,0x00,0x7e,0xfc,0xff,0xff,
0x00,0x00,0x00,0x01,0x14,0x00,0x00,0x00,0x88,0x00,0x00,0x00,
0x08,0x00,0x00,0x00,0x00,0x00,0x00,0x09,0x94,0x00,0x00,0x00,
0x0c,0xfd,0xff,0xff,0x08,0x00,0x00,0x00,0x4c,0x00,0x00,0x00,
0x08,0x00,0x00,0x00,0x00,0x00,0x00,0x00,0x00,0x00,0x00,0x00,
0x00,0x00,0x00,0x00,0x00,0x00,0x00,0x00,0x00,0x00,0x00,0x00,
0x00,0x00,0x00,0x00,0x00,0x00,0x00,0x00,0x00,0x00,0x00,0x00,
0x00,0x00,0x00,0x00,0x00,0x00,0x00,0x00,0x00,0x00,0x00,0x00,
0x00,0x00,0x00,0x00,0x00,0x00,0x00,0x00,0x00,0x00,0x00,0x00,
0x00,0x00,0x00,0x00,0x00,0x00,0x00,0x00,0x00,0x00,0x00,0x00,
0x08,0x00,0x00,0x00,0x04,0x0c,0xc0,0x3b,0x7b,0xb7,0x99,0x3b,
0xcb,0x1c,0xb0,0x3b,0xd2,0x23,0xd3,0x3b,0xf2,0xb6,0xea,0x3b,
0xe9,0x28,0xcc,0x3b,0x5e,0xde,0x93,0x3b,0xf0,0xc4,0x8d,0x3b,
0x12,0x00,0x00,0x00,0x74,0x66,0x6c,0x2e,0x70,0x73,0x65,0x75,
0x64,0x6f,0x5f,0x71,0x63,0x6f,0x6e,0x73,0x74,0x35,0x00,0x00,
0x02,0x00,0x00,0x00,0x08,0x00,0x00,0x00,0x10,0x00,0x00,0x00,
0x36,0xfd,0xff,0xff,0x00,0x00,0x00,0x01,0x14,0x00,0x00,0x00,
0x84,0x00,0x00,0x00,0x07,0x00,0x00,0x00,0x00,0x00,0x00,0x02,
0x90,0x00,0x00,0x00,0xc4,0xfd,0xff,0xff,0x08,0x00,0x00,0x00,
0x48,0x00,0x00,0x00,0x08,0x00,0x00,0x00,0x00,0x00,0x00,0x00,
0x00,0x00,0x00,0x00,0x00,0x00,0x00,0x00,0x00,0x00,0x00,0x00,
0x00,0x00,0x00,0x00,0x00,0x00,0x00,0x00,0x00,0x00,0x00,0x00,
0x00,0x00,0x00,0x00,0x00,0x00,0x00,0x00,0x00,0x00,0x00,0x00,
0x00,0x00,0x00,0x00,0x00,0x00,0x00,0x00,0x00,0x00,0x00,0x00,
0x00,0x00,0x00,0x00,0x00,0x00,0x00,0x00,0x00,0x00,0x00,0x00,
0x08,0x00,0x00,0x00,0xa4,0x2e,0x7e,0x39,0x56,0x73,0x4b,0x39,
0x9e,0x17,0x69,0x39,0xed,0xb9,0x8b,0x39,0xcc,0x53,0x9b,0x39,
0x67,0x1b,0x87,0x39,0xd8,0xb5,0x43,0x39,0x3a,0xa3,0x3b,0x39,
0x12,0x00,0x00,0x00,0x74,0x66,0x6c,0x2e,0x70,0x73,0x65,0x75,
0x64,0x6f,0x5f,0x71,0x63,0x6f,0x6e,0x73,0x74,0x34,0x00,0x00,
0x01,0x00,0x00,0x00,0x08,0x00,0x00,0x00,0xe6,0xfd,0xff,0xff,
0x00,0x00,0x00,0x01,0x14,0x00,0x00,0x00,0x58,0x00,0x00,0x00,
0x06,0x00,0x00,0x00,0x00,0x00,0x00,0x09,0x64,0x00,0x00,0x00,
0x74,0xfe,0xff,0xff,0x08,0x00,0x00,0x00,0x2c,0x00,0x00,0x00,
0x04,0x00,0x00,0x00,0x00,0x00,0x00,0x00,0x00,0x00,0x00,0x00,
0x00,0x00,0x00,0x00,0x00,0x00,0x00,0x00,0x00,0x00,0x00,0x00,
0x00,0x00,0x00,0x00,0x00,0x00,0x00,0x00,0x00,0x00,0x00,0x00,
0x00,0x00,0x00,0x00,0x04,0x00,0x00,0x00,0x6b,0x33,0xc7,0x3b,
0x45,0xb0,0xde,0x3b,0x16,0xed,0xb3,0x3b,0x61,0x8f,0xff,0x3b,
0x12,0x00,0x00,0x00,0x74,0x66,0x6c,0x2e,0x70,0x73,0x65,0x75,
0x64,0x6f,0x5f,0x71,0x63,0x6f,0x6e,0x73,0x74,0x33,0x00,0x00,
0x02,0x00,0x00,0x00,0x04,0x00,0x00,0x00,0x08,0x00,0x00,0x00,
0x6e,0xfe,0xff,0xff,0x00,0x00,0x00,0x01,0x14,0x00,0x00,0x00,
0x54,0x00,0x00,0x00,0x05,0x00,0x00,0x00,0x00,0x00,0x00,0x02,
0x60,0x00,0x00,0x00,0xfc,0xfe,0xff,0xff,0x08,0x00,0x00,0x00,
0x28,0x00,0x00,0x00,0x04,0x00,0x00,0x00,0x00,0x00,0x00,0x00,
0x00,0x00,0x00,0x00,0x00,0x00,0x00,0x00,0x00,0x00,0x00,0x00,
0x00,0x00,0x00,0x00,0x00,0x00,0x00,0x00,0x00,0x00,0x00,0x00,
0x00,0x00,0x00,0x00,0x04,0x00,0x00,0x00,0x85,0x22,0xca,0x39,
0xef,0xf7,0xe1,0x39,0x82,0x93,0xb6,0x39,0x7e,0xa9,0x01,0x3a,
0x12,0x00,0x00,0x00,0x74,0x66,0x6c,0x2e,0x70,0x73,0x65,0x75,
0x64,0x6f,0x5f,0x71,0x63,0x6f,0x6e,0x73,0x74,0x32,0x00,0x00,
0x01,0x00,0x00,0x00,0x04,0x00,0x00,0x00,0xee,0xfe,0xff,0xff,
0x00,0x00,0x00,0x01,0x14,0x00,0x00,0x00,0x54,0x00,0x00,0x00,
0x04,0x00,0x00,0x00,0x00,0x00,0x00,0x09,0x60,0x00,0x00,0x00,
0x7c,0xff,0xff,0xff,0x08,0x00,0x00,0x00,0x28,0x00,0x00,0x00,
0x04,0x00,0x00,0x00,0x00,0x00,0x00,0x00,0x00,0x00,0x00,0x00,
0x00,0x00,0x00,0x00,0x00,0x00,0x00,0x00,0x00,0x00,0x00,0x00,
0x00,0x00,0x00,0x00,0x00,0x00,0x00,0x00,0x00,0x00,0x00,0x00,
0x04,0x00,0x00,0x00,0x5c,0xe4,0xec,0x3b,0xfe,0xb8,0x14,0x3c,
0x76,0xd0,0xfd,0x3b,0x22,0x51,0x01,0x3c,0x12,0x00,0x00,0x00,
0x74,0x66,0x6c,0x2e,0x70,0x73,0x65,0x75,0x64,0x6f,0x5f,0x71,
0x63,0x6f,0x6e,0x73,0x74,0x31,0x00,0x00,0x02,0x00,0x00,0x00,
0x04,0x00,0x00,0x00,0x04,0x00,0x00,0x00,0x72,0xff,0xff,0xff,
0x00,0x00,0x00,0x01,0x20,0x00,0x00,0x00,0x60,0x00,0x00,0x00,
0x03,0x00,0x00,0x00,0x00,0x00,0x00,0x02,0x6c,0x00,0x00,0x00,
0x0c,0x00,0x0c,0x00,0x00,0x00,0x00,0x00,0x08,0x00,0x04,0x00,
0x0c,0x00,0x00,0x00,0x08,0x00,0x00,0x00,0x28,0x00,0x00,0x00,
0x04,0x00,0x00,0x00,0x00,0x00,0x00,0x00,0x00,0x00,0x00,0x00,
0x00,0x00,0x00,0x00,0x00,0x00,0x00,0x00,0x00,0x00,0x00,0x00,
0x00,0x00,0x00,0x00,0x00,0x00,0x00,0x00,0x00,0x00,0x00,0x00,
0x04,0x00,0x00,0x00,0x1d,0xb9,0x01,0x3a,0xdf,0xe1,0x22,0x3a,
0x64,0xfd,0x0a,0x3a,0x07,0xa1,0x0d,0x3a,0x11,0x00,0x00,0x00,
0x74,0x66,0x6c,0x2e,0x70,0x73,0x65,0x75,0x64,0x6f,0x5f,0x71,
0x63,0x6f,0x6e,0x73,0x74,0x00,0x00,0x00,0x01,0x00,0x00,0x00,
0x04,0x00,0x00,0x00,0x00,0x00,0x16,0x00,0x1c,0x00,0x18,0x00,
0x17,0x00,0x10,0x00,0x0c,0x00,0x08,0x00,0x00,0x00,0x00,0x00,
0x00,0x00,0x07,0x00,0x16,0x00,0x00,0x00,0x00,0x00,0x00,0x01,
0x14,0x00,0x00,0x00,0x14,0x00,0x00,0x00,0x02,0x00,0x00,0x00,
0x00,0x00,0x00,0x02,0x1c,0x00,0x00,0x00,0xa0,0xff,0xff,0xff,
0x0e,0x00,0x00,0x00,0x61,0x72,0x69,0x74,0x68,0x2e,0x63,0x6f,
0x6e,0x73,0x74,0x61,0x6e,0x74,0x00,0x00,0x01,0x00,0x00,0x00,
0x02,0x00,0x00,0x00,0x00,0x00,0x16,0x00,0x1c,0x00,0x18,0x00,
0x00,0x00,0x14,0x00,0x10,0x00,0x0c,0x00,0x00,0x00,0x00,0x00,
0x08,0x00,0x07,0x00,0x16,0x00,0x00,0x00,0x00,0x00,0x00,0x01,
0x14,0x00,0x00,0x00,0x20,0x00,0x00,0x00,0x20,0x00,0x00,0x00,
0x01,0x00,0x00,0x00,0x3c,0x00,0x00,0x00,0x02,0x00,0x00,0x00,
0xff,0xff,0xff,0xff,0x09,0x00,0x00,0x00,0x04,0x00,0x04,0x00,
0x04,0x00,0x00,0x00,0x1e,0x00,0x00,0x00,0x73,0x65,0x72,0x76,
0x69,0x6e,0x67,0x5f,0x64,0x65,0x66,0x61,0x75,0x6c,0x74,0x5f,
0x6b,0x65,0x72,0x61,0x73,0x5f,0x74,0x65,0x6e,0x73,0x6f,0x72,
0x3a,0x30,0x00,0x00,0x02,0x00,0x00,0x00,0x01,0x00,0x00,0x00,
0x09,0x00,0x00,0x00,0x05,0x00,0x00,0x00,0x68,0x00,0x00,0x00,
0x4c,0x00,0x00,0x00,0x38,0x00,0x00,0x00,0x18,0x00,0x00,0x00,
0x04,0x00,0x00,0x00,0xe0,0xff,0xff,0xff,0x06,0x00,0x00,0x00,
0x02,0x00,0x00,0x00,0x00,0x00,0x00,0x06,0xf0,0xff,0xff,0xff,
0x19,0x00,0x00,0x00,0x02,0x00,0x00,0x00,0x00,0x00,0x00,0x19,
0x0c,0x00,0x10,0x00,0x0f,0x00,0x00,0x00,0x08,0x00,0x04,0x00,
0x0c,0x00,0x00,0x00,0x09,0x00,0x00,0x00,0x04,0x00,0x00,0x00,
0x00,0x00,0x00,0x09,0xf4,0xff,0xff,0xff,0x16,0x00,0x00,0x00,
0x00,0x00,0x00,0x16,0x0c,0x00,0x0c,0x00,0x0b,0x00,0x00,0x00,
0x00,0x00,0x04,0x00,0x0c,0x00,0x00,0x00,0x72,0x00,0x00,0x00,
0x00,0x00,0x00,0x72
};

#endif //FOREST_MODEL_ESP32_H