#ifndef FOREST_MODEL_ESP32_H
#define FOREST_MODEL_ESP32_H

/*
 Author: Mouli Sankaran 
 CAUTION: This is an auto generated file.
 DO NOT EDIT OR MAKE ANY CHANGES TO it.
 This model data was generated on Tue Oct 29 21:14:53 2024

 Tools used:
 Python: 3.12.4 | packaged by Anaconda, Inc. | (main, Jun 18 2024, 15:03:56) [MSC v.1929 64 bit (AMD64)]
 Numpy: 1.26.4
 TensorFlow: 2.17.0
 Keras: 3.5.0

 Model details are:
 NUM_OF_EPOCHS = 100
 BATCH_SIZE    = 16
*/

const int DENSE1_SIZE = 16;
const int DENSE2_SIZE = 8;

const unsigned int forest_model_esp32_len = 4744;
alignas(8) const unsigned char forest_model_esp32[] = {
0x1c,0x00,0x00,0x00,0x54,0x46,0x4c,0x33,0x14,0x00,0x20,0x00,
0x1c,0x00,0x18,0x00,0x14,0x00,0x10,0x00,0x0c,0x00,0x00,0x00,
0x08,0x00,0x04,0x00,0x14,0x00,0x00,0x00,0x1c,0x00,0x00,0x00,
0x8c,0x00,0x00,0x00,0x0c,0x01,0x00,0x00,0x64,0x04,0x00,0x00,
0x74,0x04,0x00,0x00,0xdc,0x11,0x00,0x00,0x03,0x00,0x00,0x00,
0x01,0x00,0x00,0x00,0x04,0x00,0x00,0x00,0xf2,0xf9,0xff,0xff,
0x0c,0x00,0x00,0x00,0x1c,0x00,0x00,0x00,0x3c,0x00,0x00,0x00,
0x0f,0x00,0x00,0x00,0x73,0x65,0x72,0x76,0x69,0x6e,0x67,0x5f,
0x64,0x65,0x66,0x61,0x75,0x6c,0x74,0x00,0x01,0x00,0x00,0x00,
0x04,0x00,0x00,0x00,0x68,0xff,0xff,0xff,0x11,0x00,0x00,0x00,
0x04,0x00,0x00,0x00,0x08,0x00,0x00,0x00,0x6f,0x75,0x74,0x70,
0x75,0x74,0x5f,0x30,0x00,0x00,0x00,0x00,0x01,0x00,0x00,0x00,
0x04,0x00,0x00,0x00,0x56,0xfb,0xff,0xff,0x04,0x00,0x00,0x00,
0x0c,0x00,0x00,0x00,0x6b,0x65,0x72,0x61,0x73,0x5f,0x74,0x65,
0x6e,0x73,0x6f,0x72,0x00,0x00,0x00,0x00,0x03,0x00,0x00,0x00,
0x5c,0x00,0x00,0x00,0x2c,0x00,0x00,0x00,0x04,0x00,0x00,0x00,
0xb8,0xff,0xff,0xff,0x15,0x00,0x00,0x00,0x04,0x00,0x00,0x00,
0x13,0x00,0x00,0x00,0x43,0x4f,0x4e,0x56,0x45,0x52,0x53,0x49,
0x4f,0x4e,0x5f,0x4d,0x45,0x54,0x41,0x44,0x41,0x54,0x41,0x00,
0xdc,0xff,0xff,0xff,0x14,0x00,0x00,0x00,0x04,0x00,0x00,0x00,
0x13,0x00,0x00,0x00,0x6d,0x69,0x6e,0x5f,0x72,0x75,0x6e,0x74,
0x69,0x6d,0x65,0x5f,0x76,0x65,0x72,0x73,0x69,0x6f,0x6e,0x00,
0x08,0x00,0x0c,0x00,0x08,0x00,0x04,0x00,0x08,0x00,0x00,0x00,
0x13,0x00,0x00,0x00,0x04,0x00,0x00,0x00,0x13,0x00,0x00,0x00,
0x6d,0x69,0x6e,0x5f,0x72,0x75,0x6e,0x74,0x69,0x6d,0x65,0x5f,
0x76,0x65,0x72,0x73,0x69,0x6f,0x6e,0x00,0x16,0x00,0x00,0x00,
0x54,0x03,0x00,0x00,0x4c,0x03,0x00,0x00,0x34,0x03,0x00,0x00,
0x14,0x03,0x00,0x00,0xf4,0x02,0x00,0x00,0xd4,0x02,0x00,0x00,
0xa4,0x02,0x00,0x00,0x74,0x02,0x00,0x00,0xe4,0x01,0x00,0x00,
0x94,0x01,0x00,0x00,0xf4,0x00,0x00,0x00,0xec,0x00,0x00,0x00,
0xe4,0x00,0x00,0x00,0xdc,0x00,0x00,0x00,0xd4,0x00,0x00,0x00,
0xcc,0x00,0x00,0x00,0xc4,0x00,0x00,0x00,0xbc,0x00,0x00,0x00,
0xb4,0x00,0x00,0x00,0x94,0x00,0x00,0x00,0x74,0x00,0x00,0x00,
0x04,0x00,0x00,0x00,0x52,0xfc,0xff,0xff,0x04,0x00,0x00,0x00,
0x60,0x00,0x00,0x00,0x0c,0x00,0x00,0x00,0x08,0x00,0x0e,0x00,
0x08,0x00,0x04,0x00,0x08,0x00,0x00,0x00,0x10,0x00,0x00,0x00,
0x28,0x00,0x00,0x00,0x00,0x00,0x06,0x00,0x08,0x00,0x04,0x00,
0x06,0x00,0x00,0x00,0x04,0x00,0x00,0x00,0x01,0x00,0x00,0x00,
0xeb,0x03,0x00,0x00,0x0c,0x00,0x18,0x00,0x14,0x00,0x10,0x00,
0x0c,0x00,0x04,0x00,0x0c,0x00,0x00,0x00,0x81,0x13,0x22,0x22,
0x00,0x66,0x3b,0x12,0x02,0x00,0x00,0x00,0x02,0x00,0x00,0x00,
0x04,0x00,0x00,0x00,0x06,0x00,0x00,0x00,0x32,0x2e,0x31,0x37,
0x2e,0x30,0x00,0x00,0xbe,0xfc,0xff,0xff,0x04,0x00,0x00,0x00,
0x10,0x00,0x00,0x00,0x00,0x00,0x00,0x00,0x00,0x00,0x00,0x00,
0x00,0x00,0x00,0x00,0x00,0x00,0x00,0x00,0xda,0xfc,0xff,0xff,
0x04,0x00,0x00,0x00,0x10,0x00,0x00,0x00,0x31,0x2e,0x31,0x34,
0x2e,0x30,0x00,0x00,0x00,0x00,0x00,0x00,0x00,0x00,0x00,0x00,
0x5c,0xf0,0xff,0xff,0x60,0xf0,0xff,0xff,0x64,0xf0,0xff,0xff,
0x68,0xf0,0xff,0xff,0x6c,0xf0,0xff,0xff,0x70,0xf0,0xff,0xff,
0x74,0xf0,0xff,0xff,0x78,0xf0,0xff,0xff,0x16,0xfd,0xff,0xff,
0x04,0x00,0x00,0x00,0x90,0x00,0x00,0x00,0x07,0x6e,0x4f,0x19,
0x78,0x0b,0x21,0x69,0x7f,0xdc,0xe6,0x91,0x55,0xc5,0x81,0x1d,
0xdb,0xb3,0xd0,0xd2,0x81,0xd8,0x51,0x05,0xae,0x08,0x76,0xd0,
0xca,0xd1,0xbd,0xd3,0x81,0xbf,0xd6,0x1f,0x41,0x81,0xe9,0xd7,
0x23,0x32,0xd3,0xb5,0x41,0x00,0x0b,0xbe,0x81,0xcd,0x0a,0xc1,
0xd6,0x0d,0x1b,0xd3,0x5c,0x93,0x31,0x2f,0x39,0xc9,0x81,0xd1,
0x4c,0xd9,0x1b,0x5e,0x03,0x7f,0x29,0x1b,0x18,0xdf,0xf3,0x4b,
0xab,0x81,0x16,0xd3,0x30,0x7f,0xd7,0xf8,0x7b,0x3d,0xf1,0xc6,
0x03,0x78,0x81,0x51,0x39,0x1e,0x49,0xde,0x36,0xfe,0x9b,0x7f,
0xcb,0xe0,0x6a,0xcc,0x28,0xdf,0xa1,0xf4,0x44,0x21,0xa4,0x2d,
0x2f,0x0c,0xd9,0x81,0xa2,0xfb,0xfd,0x0a,0x40,0x40,0x7f,0xe7,
0xd2,0xba,0xe5,0x33,0x38,0x1e,0x41,0xce,0xfe,0x98,0x81,0x8e,
0x81,0xb6,0xf7,0x51,0xd8,0xe1,0xba,0xa0,0xb2,0xfd,0xff,0xff,
0x04,0x00,0x00,0x00,0x40,0x00,0x00,0x00,0xfe,0x03,0x00,0x00,
0x61,0x05,0x00,0x00,0x34,0x06,0x00,0x00,0xe9,0x00,0x00,0x00,
0x79,0x04,0x00,0x00,0x92,0x03,0x00,0x00,0xcb,0xfd,0xff,0xff,
0x7e,0x01,0x00,0x00,0x46,0x04,0x00,0x00,0x05,0x09,0x00,0x00,
0x86,0x03,0x00,0x00,0x81,0x03,0x00,0x00,0x4a,0x06,0x00,0x00,
0x17,0x04,0x00,0x00,0xd1,0x01,0x00,0x00,0x9c,0x06,0x00,0x00,
0xfe,0xfd,0xff,0xff,0x04,0x00,0x00,0x00,0x80,0x00,0x00,0x00,
0x06,0x3e,0x9b,0x24,0xdd,0xc3,0xec,0x1c,0x7f,0xf6,0xf3,0x1b,
0xf4,0x0e,0x4f,0xda,0xff,0x3e,0x37,0x43,0x43,0x1e,0xc2,0xe6,
0x7f,0x49,0xd5,0x53,0x40,0xb4,0xd5,0x2b,0x06,0x81,0xc5,0xa8,
0x1f,0x25,0xbd,0x3b,0xdd,0x4b,0x28,0x49,0x23,0xbb,0xfc,0xd9,
0x96,0xd1,0x30,0xed,0x22,0x45,0x38,0x21,0x81,0x88,0xb2,0x61,
0xc0,0x25,0x20,0xa1,0x70,0x31,0x73,0x44,0x7b,0x6b,0xbe,0x00,
0x55,0x7f,0xf2,0x45,0xfe,0x2e,0x97,0x3b,0xdc,0x28,0xfc,0x19,
0x09,0x7f,0xf3,0x20,0xeb,0x0f,0x0c,0xb6,0xf2,0x2f,0x6d,0x6e,
0x57,0x15,0xea,0xd2,0xa1,0xd7,0xe2,0x48,0xf0,0x51,0x7f,0x23,
0x39,0x2b,0x33,0x41,0x0d,0x41,0x16,0x17,0xac,0x7a,0x3a,0x08,
0x49,0xd4,0x3a,0xa0,0x7a,0x27,0x2c,0x7f,0x8a,0xfe,0xff,0xff,
0x04,0x00,0x00,0x00,0x20,0x00,0x00,0x00,0x3a,0x02,0x00,0x00,
0x67,0x01,0x00,0x00,0x07,0xfe,0xff,0xff,0x9d,0xfe,0xff,0xff,
0x94,0x01,0x00,0x00,0x81,0x02,0x00,0x00,0xf9,0x02,0x00,0x00,
0x47,0x04,0x00,0x00,0xb6,0xfe,0xff,0xff,0x04,0x00,0x00,0x00,
0x20,0x00,0x00,0x00,0x81,0xa5,0x0b,0x40,0x61,0xfe,0x4d,0x68,
0x83,0x5b,0xce,0xbe,0x7f,0x67,0x84,0x3c,0x68,0xaf,0xd0,0x09,
0x81,0x62,0x31,0x68,0x62,0x6e,0x0b,0x42,0x7f,0x97,0x3e,0x06,
0xe2,0xfe,0xff,0xff,0x04,0x00,0x00,0x00,0x10,0x00,0x00,0x00,
0x42,0x01,0x00,0x00,0xa0,0x00,0x00,0x00,0xdc,0x01,0x00,0x00,
0xbf,0xff,0xff,0xff,0xfe,0xfe,0xff,0xff,0x04,0x00,0x00,0x00,
0x10,0x00,0x00,0x00,0x52,0xea,0x5d,0x81,0x81,0x19,0x02,0xdd,
0x7f,0xb8,0x90,0xb0,0xcc,0x5e,0x81,0x88,0x1a,0xff,0xff,0xff,
0x04,0x00,0x00,0x00,0x10,0x00,0x00,0x00,0x94,0x00,0x00,0x00,
0x0a,0x01,0x00,0x00,0xca,0xfe,0xff,0xff,0xe4,0xfe,0xff,0xff,
0x36,0xff,0xff,0xff,0x04,0x00,0x00,0x00,0x08,0x00,0x00,0x00,
0xff,0xff,0xff,0xff,0x09,0x00,0x00,0x00,0xb0,0xf2,0xff,0xff,
0xb4,0xf2,0xff,0xff,0x0f,0x00,0x00,0x00,0x4d,0x4c,0x49,0x52,
0x20,0x43,0x6f,0x6e,0x76,0x65,0x72,0x74,0x65,0x64,0x2e,0x00,
0x01,0x00,0x00,0x00,0x14,0x00,0x00,0x00,0x00,0x00,0x0e,0x00,
0x18,0x00,0x14,0x00,0x10,0x00,0x0c,0x00,0x08,0x00,0x04,0x00,
0x0e,0x00,0x00,0x00,0x14,0x00,0x00,0x00,0x1c,0x00,0x00,0x00,
0xe0,0x01,0x00,0x00,0xe4,0x01,0x00,0x00,0xe8,0x01,0x00,0x00,
0x04,0x00,0x00,0x00,0x6d,0x61,0x69,0x6e,0x00,0x00,0x00,0x00,
0x08,0x00,0x00,0x00,0xa8,0x01,0x00,0x00,0x74,0x01,0x00,0x00,
0x24,0x01,0x00,0x00,0xd8,0x00,0x00,0x00,0x9c,0x00,0x00,0x00,
0x64,0x00,0x00,0x00,0x28,0x00,0x00,0x00,0x04,0x00,0x00,0x00,
0xb2,0xfe,0xff,0xff,0x0c,0x00,0x00,0x00,0x10,0x00,0x00,0x00,
0x04,0x00,0x00,0x00,0x01,0x00,0x00,0x00,0x11,0x00,0x00,0x00,
0x01,0x00,0x00,0x00,0x10,0x00,0x00,0x00,0x22,0xff,0xff,0xff,
0x1c,0x00,0x00,0x00,0x00,0x00,0x00,0x09,0x1c,0x00,0x00,0x00,
0x20,0x00,0x00,0x00,0x03,0x00,0x00,0x00,0x00,0x00,0x06,0x00,
0x08,0x00,0x04,0x00,0x06,0x00,0x00,0x00,0x00,0x00,0x80,0x3f,
0x01,0x00,0x00,0x00,0x10,0x00,0x00,0x00,0x01,0x00,0x00,0x00,
0x0f,0x00,0x00,0x00,0x5a,0xff,0xff,0xff,0x14,0x00,0x00,0x00,
0x00,0x00,0x00,0x08,0x10,0x00,0x00,0x00,0x14,0x00,0x00,0x00,
0x02,0x00,0x00,0x00,0x9c,0xf3,0xff,0xff,0x01,0x00,0x00,0x00,
0x0f,0x00,0x00,0x00,0x03,0x00,0x00,0x00,0x0e,0x00,0x00,0x00,
0x03,0x00,0x00,0x00,0x02,0x00,0x00,0x00,0x8e,0xff,0xff,0xff,
0x14,0x00,0x00,0x00,0x00,0x00,0x00,0x08,0x14,0x00,0x00,0x00,
0x18,0x00,0x00,0x00,0x02,0x00,0x00,0x00,0x7e,0xff,0xff,0xff,
0x00,0x00,0x00,0x01,0x01,0x00,0x00,0x00,0x0e,0x00,0x00,0x00,
0x03,0x00,0x00,0x00,0x0d,0x00,0x00,0x00,0x05,0x00,0x00,0x00,
0x04,0x00,0x00,0x00,0xc6,0xff,0xff,0xff,0x14,0x00,0x00,0x00,
0x00,0x00,0x00,0x08,0x14,0x00,0x00,0x00,0x18,0x00,0x00,0x00,
0x02,0x00,0x00,0x00,0xb6,0xff,0xff,0xff,0x00,0x00,0x00,0x01,
0x01,0x00,0x00,0x00,0x0d,0x00,0x00,0x00,0x03,0x00,0x00,0x00,
0x0c,0x00,0x00,0x00,0x07,0x00,0x00,0x00,0x06,0x00,0x00,0x00,
0x00,0x00,0x0e,0x00,0x1a,0x00,0x14,0x00,0x10,0x00,0x0c,0x00,
0x0b,0x00,0x04,0x00,0x0e,0x00,0x00,0x00,0x1c,0x00,0x00,0x00,
0x00,0x00,0x00,0x08,0x1c,0x00,0x00,0x00,0x20,0x00,0x00,0x00,
0x02,0x00,0x00,0x00,0x00,0x00,0x06,0x00,0x08,0x00,0x07,0x00,
0x06,0x00,0x00,0x00,0x00,0x00,0x00,0x01,0x01,0x00,0x00,0x00,
0x0c,0x00,0x00,0x00,0x03,0x00,0x00,0x00,0x0b,0x00,0x00,0x00,
0x09,0x00,0x00,0x00,0x08,0x00,0x00,0x00,0x00,0x00,0x0a,0x00,
0x10,0x00,0x0c,0x00,0x08,0x00,0x04,0x00,0x0a,0x00,0x00,0x00,
0x0c,0x00,0x00,0x00,0x10,0x00,0x00,0x00,0x01,0x00,0x00,0x00,
0x01,0x00,0x00,0x00,0x0b,0x00,0x00,0x00,0x02,0x00,0x00,0x00,
0x0a,0x00,0x00,0x00,0x01,0x00,0x00,0x00,0x00,0x00,0x0a,0x00,
0x0c,0x00,0x00,0x00,0x08,0x00,0x04,0x00,0x0a,0x00,0x00,0x00,
0x08,0x00,0x00,0x00,0x0c,0x00,0x00,0x00,0x01,0x00,0x00,0x00,
0x0a,0x00,0x00,0x00,0x01,0x00,0x00,0x00,0x00,0x00,0x00,0x00,
0x01,0x00,0x00,0x00,0x11,0x00,0x00,0x00,0x01,0x00,0x00,0x00,
0x00,0x00,0x00,0x00,0x12,0x00,0x00,0x00,0xf4,0x0a,0x00,0x00,
0x9c,0x0a,0x00,0x00,0xf4,0x09,0x00,0x00,0x6c,0x09,0x00,0x00,
0xe8,0x08,0x00,0x00,0x5c,0x08,0x00,0x00,0xa8,0x07,0x00,0x00,
0xec,0x06,0x00,0x00,0xd8,0x05,0x00,0x00,0xbc,0x04,0x00,0x00,
0x48,0x04,0x00,0x00,0xac,0x03,0x00,0x00,0xf8,0x02,0x00,0x00,
0x3c,0x02,0x00,0x00,0x80,0x01,0x00,0x00,0xe4,0x00,0x00,0x00,
0x60,0x00,0x00,0x00,0x04,0x00,0x00,0x00,0x6a,0xf5,0xff,0xff,
0x00,0x00,0x00,0x01,0x14,0x00,0x00,0x00,0x1c,0x00,0x00,0x00,
0x1c,0x00,0x00,0x00,0x12,0x00,0x00,0x00,0x34,0x00,0x00,0x00,
0x02,0x00,0x00,0x00,0xff,0xff,0xff,0xff,0x04,0x00,0x00,0x00,
0x54,0xf5,0xff,0xff,0x1b,0x00,0x00,0x00,0x53,0x74,0x61,0x74,
0x65,0x66,0x75,0x6c,0x50,0x61,0x72,0x74,0x69,0x74,0x69,0x6f,
0x6e,0x65,0x64,0x43,0x61,0x6c,0x6c,0x5f,0x31,0x3a,0x30,0x00,
0x02,0x00,0x00,0x00,0x01,0x00,0x00,0x00,0x04,0x00,0x00,0x00,
0x46,0xfc,0xff,0xff,0x00,0x00,0x00,0x01,0x18,0x00,0x00,0x00,
0x20,0x00,0x00,0x00,0x40,0x00,0x00,0x00,0x11,0x00,0x00,0x00,
0x00,0x00,0x00,0x09,0x58,0x00,0x00,0x00,0x02,0x00,0x00,0x00,
0xff,0xff,0xff,0xff,0x04,0x00,0x00,0x00,0xb4,0xf6,0xff,0xff,
0x08,0x00,0x00,0x00,0x14,0x00,0x00,0x00,0x01,0x00,0x00,0x00,
0x80,0xff,0xff,0xff,0xff,0xff,0xff,0xff,0x00,0x00,0x00,0x00,
0x01,0x00,0x00,0x00,0x00,0x00,0x80,0x3b,0x1c,0x00,0x00,0x00,
0x53,0x74,0x61,0x74,0x65,0x66,0x75,0x6c,0x50,0x61,0x72,0x74,
0x69,0x74,0x69,0x6f,0x6e,0x65,0x64,0x43,0x61,0x6c,0x6c,0x5f,
0x31,0x3a,0x30,0x31,0x00,0x00,0x00,0x00,0x02,0x00,0x00,0x00,
0x01,0x00,0x00,0x00,0x04,0x00,0x00,0x00,0xc6,0xfc,0xff,0xff,
0x00,0x00,0x00,0x01,0x18,0x00,0x00,0x00,0x20,0x00,0x00,0x00,
0x3c,0x00,0x00,0x00,0x10,0x00,0x00,0x00,0x00,0x00,0x00,0x09,
0x70,0x00,0x00,0x00,0x02,0x00,0x00,0x00,0xff,0xff,0xff,0xff,
0x04,0x00,0x00,0x00,0x34,0xf7,0xff,0xff,0x08,0x00,0x00,0x00,
0x10,0x00,0x00,0x00,0x01,0x00,0x00,0x00,0x42,0x00,0x00,0x00,
0x00,0x00,0x00,0x00,0x01,0x00,0x00,0x00,0xc0,0x7f,0xd7,0x3d,
0x38,0x00,0x00,0x00,0x73,0x65,0x71,0x75,0x65,0x6e,0x74,0x69,
0x61,0x6c,0x5f,0x31,0x2f,0x64,0x65,0x6e,0x73,0x65,0x5f,0x33,
0x5f,0x31,0x2f,0x4d,0x61,0x74,0x4d,0x75,0x6c,0x3b,0x73,0x65,
0x71,0x75,0x65,0x6e,0x74,0x69,0x61,0x6c,0x5f,0x31,0x2f,0x64,
0x65,0x6e,0x73,0x65,0x5f,0x33,0x5f,0x31,0x2f,0x41,0x64,0x64,
0x00,0x00,0x00,0x00,0x02,0x00,0x00,0x00,0x01,0x00,0x00,0x00,
0x04,0x00,0x00,0x00,0x5e,0xfd,0xff,0xff,0x00,0x00,0x00,0x01,
0x18,0x00,0x00,0x00,0x20,0x00,0x00,0x00,0x40,0x00,0x00,0x00,
0x0f,0x00,0x00,0x00,0x00,0x00,0x00,0x09,0x90,0x00,0x00,0x00,
0x02,0x00,0x00,0x00,0xff,0xff,0xff,0xff,0x04,0x00,0x00,0x00,
0xcc,0xf7,0xff,0xff,0x08,0x00,0x00,0x00,0x14,0x00,0x00,0x00,
0x01,0x00,0x00,0x00,0x80,0xff,0xff,0xff,0xff,0xff,0xff,0xff,
0x00,0x00,0x00,0x00,0x01,0x00,0x00,0x00,0x21,0x93,0xa6,0x3d,
0x54,0x00,0x00,0x00,0x73,0x65,0x71,0x75,0x65,0x6e,0x74,0x69,
0x61,0x6c,0x5f,0x31,0x2f,0x64,0x65,0x6e,0x73,0x65,0x5f,0x32,
0x5f,0x31,0x2f,0x4d,0x61,0x74,0x4d,0x75,0x6c,0x3b,0x73,0x65,
0x71,0x75,0x65,0x6e,0x74,0x69,0x61,0x6c,0x5f,0x31,0x2f,0x64,
0x65,0x6e,0x73,0x65,0x5f,0x32,0x5f,0x31,0x2f,0x52,0x65,0x6c,
0x75,0x3b,0x73,0x65,0x71,0x75,0x65,0x6e,0x74,0x69,0x61,0x6c,
0x5f,0x31,0x2f,0x64,0x65,0x6e,0x73,0x65,0x5f,0x32,0x5f,0x31,
0x2f,0x41,0x64,0x64,0x00,0x00,0x00,0x00,0x02,0x00,0x00,0x00,
0x01,0x00,0x00,0x00,0x04,0x00,0x00,0x00,0x16,0xfe,0xff,0xff,
0x00,0x00,0x00,0x01,0x18,0x00,0x00,0x00,0x20,0x00,0x00,0x00,
0x40,0x00,0x00,0x00,0x0e,0x00,0x00,0x00,0x00,0x00,0x00,0x09,
0x90,0x00,0x00,0x00,0x02,0x00,0x00,0x00,0xff,0xff,0xff,0xff,
0x08,0x00,0x00,0x00,0x84,0xf8,0xff,0xff,0x08,0x00,0x00,0x00,
0x14,0x00,0x00,0x00,0x01,0x00,0x00,0x00,0x80,0xff,0xff,0xff,
0xff,0xff,0xff,0xff,0x00,0x00,0x00,0x00,0x01,0x00,0x00,0x00,
0x0d,0xe0,0x5c,0x3d,0x54,0x00,0x00,0x00,0x73,0x65,0x71,0x75,
0x65,0x6e,0x74,0x69,0x61,0x6c,0x5f,0x31,0x2f,0x64,0x65,0x6e,
0x73,0x65,0x5f,0x31,0x5f,0x32,0x2f,0x4d,0x61,0x74,0x4d,0x75,
0x6c,0x3b,0x73,0x65,0x71,0x75,0x65,0x6e,0x74,0x69,0x61,0x6c,
0x5f,0x31,0x2f,0x64,0x65,0x6e,0x73,0x65,0x5f,0x31,0x5f,0x32,
0x2f,0x52,0x65,0x6c,0x75,0x3b,0x73,0x65,0x71,0x75,0x65,0x6e,
0x74,0x69,0x61,0x6c,0x5f,0x31,0x2f,0x64,0x65,0x6e,0x73,0x65,
0x5f,0x31,0x5f,0x32,0x2f,0x41,0x64,0x64,0x00,0x00,0x00,0x00,
0x02,0x00,0x00,0x00,0x01,0x00,0x00,0x00,0x08,0x00,0x00,0x00,
0xce,0xfe,0xff,0xff,0x00,0x00,0x00,0x01,0x18,0x00,0x00,0x00,
0x20,0x00,0x00,0x00,0x40,0x00,0x00,0x00,0x0d,0x00,0x00,0x00,
0x00,0x00,0x00,0x09,0x88,0x00,0x00,0x00,0x02,0x00,0x00,0x00,
0xff,0xff,0xff,0xff,0x10,0x00,0x00,0x00,0x3c,0xf9,0xff,0xff,
0x08,0x00,0x00,0x00,0x14,0x00,0x00,0x00,0x01,0x00,0x00,0x00,
0x80,0xff,0xff,0xff,0xff,0xff,0xff,0xff,0x00,0x00,0x00,0x00,
0x01,0x00,0x00,0x00,0x1a,0x61,0x2b,0x3d,0x4e,0x00,0x00,0x00,
0x73,0x65,0x71,0x75,0x65,0x6e,0x74,0x69,0x61,0x6c,0x5f,0x31,
0x2f,0x64,0x65,0x6e,0x73,0x65,0x5f,0x31,0x2f,0x4d,0x61,0x74,
0x4d,0x75,0x6c,0x3b,0x73,0x65,0x71,0x75,0x65,0x6e,0x74,0x69,
0x61,0x6c,0x5f,0x31,0x2f,0x64,0x65,0x6e,0x73,0x65,0x5f,0x31,
0x2f,0x52,0x65,0x6c,0x75,0x3b,0x73,0x65,0x71,0x75,0x65,0x6e,
0x74,0x69,0x61,0x6c,0x5f,0x31,0x2f,0x64,0x65,0x6e,0x73,0x65,
0x5f,0x31,0x2f,0x41,0x64,0x64,0x00,0x00,0x02,0x00,0x00,0x00,
0x01,0x00,0x00,0x00,0x10,0x00,0x00,0x00,0x7e,0xff,0xff,0xff,
0x00,0x00,0x00,0x01,0x18,0x00,0x00,0x00,0x20,0x00,0x00,0x00,
0x40,0x00,0x00,0x00,0x0c,0x00,0x00,0x00,0x00,0x00,0x00,0x09,
0x58,0x00,0x00,0x00,0x02,0x00,0x00,0x00,0xff,0xff,0xff,0xff,
0x09,0x00,0x00,0x00,0xec,0xf9,0xff,0xff,0x08,0x00,0x00,0x00,
0x14,0x00,0x00,0x00,0x01,0x00,0x00,0x00,0xbc,0xff,0xff,0xff,
0xff,0xff,0xff,0xff,0x00,0x00,0x00,0x00,0x01,0x00,0x00,0x00,
0x83,0xe0,0x20,0x3d,0x1e,0x00,0x00,0x00,0x73,0x65,0x71,0x75,
0x65,0x6e,0x74,0x69,0x61,0x6c,0x5f,0x31,0x2f,0x66,0x6c,0x61,
0x74,0x74,0x65,0x6e,0x5f,0x31,0x2f,0x52,0x65,0x73,0x68,0x61,
0x70,0x65,0x00,0x00,0x02,0x00,0x00,0x00,0x01,0x00,0x00,0x00,
0x09,0x00,0x00,0x00,0x00,0x00,0x16,0x00,0x20,0x00,0x1c,0x00,
0x1b,0x00,0x14,0x00,0x10,0x00,0x0c,0x00,0x00,0x00,0x00,0x00,
0x08,0x00,0x07,0x00,0x16,0x00,0x00,0x00,0x00,0x00,0x00,0x01,
0x18,0x00,0x00,0x00,0x20,0x00,0x00,0x00,0x40,0x00,0x00,0x00,
0x0b,0x00,0x00,0x00,0x00,0x00,0x00,0x09,0x48,0x00,0x00,0x00,
0x02,0x00,0x00,0x00,0xff,0xff,0xff,0xff,0x09,0x00,0x00,0x00,
0x84,0xfa,0xff,0xff,0x08,0x00,0x00,0x00,0x14,0x00,0x00,0x00,
0x01,0x00,0x00,0x00,0xbc,0xff,0xff,0xff,0xff,0xff,0xff,0xff,
0x00,0x00,0x00,0x00,0x01,0x00,0x00,0x00,0x83,0xe0,0x20,0x3d,
0x0c,0x00,0x00,0x00,0x74,0x66,0x6c,0x2e,0x71,0x75,0x61,0x6e,
0x74,0x69,0x7a,0x65,0x00,0x00,0x00,0x00,0x02,0x00,0x00,0x00,
0x01,0x00,0x00,0x00,0x09,0x00,0x00,0x00,0x56,0xfa,0xff,0xff,
0x00,0x00,0x00,0x01,0x14,0x00,0x00,0x00,0xe8,0x00,0x00,0x00,
0x0a,0x00,0x00,0x00,0x00,0x00,0x00,0x09,0xf4,0x00,0x00,0x00,
0xe4,0xfa,0xff,0xff,0x08,0x00,0x00,0x00,0x8c,0x00,0x00,0x00,
0x10,0x00,0x00,0x00,0x00,0x00,0x00,0x00,0x00,0x00,0x00,0x00,
0x00,0x00,0x00,0x00,0x00,0x00,0x00,0x00,0x00,0x00,0x00,0x00,
0x00,0x00,0x00,0x00,0x00,0x00,0x00,0x00,0x00,0x00,0x00,0x00,
0x00,0x00,0x00,0x00,0x00,0x00,0x00,0x00,0x00,0x00,0x00,0x00,
0x00,0x00,0x00,0x00,0x00,0x00,0x00,0x00,0x00,0x00,0x00,0x00,
0x00,0x00,0x00,0x00,0x00,0x00,0x00,0x00,0x00,0x00,0x00,0x00,
0x00,0x00,0x00,0x00,0x00,0x00,0x00,0x00,0x00,0x00,0x00,0x00,
0x00,0x00,0x00,0x00,0x00,0x00,0x00,0x00,0x00,0x00,0x00,0x00,
0x00,0x00,0x00,0x00,0x00,0x00,0x00,0x00,0x00,0x00,0x00,0x00,
0x00,0x00,0x00,0x00,0x00,0x00,0x00,0x00,0x00,0x00,0x00,0x00,
0x00,0x00,0x00,0x00,0x00,0x00,0x00,0x00,0x00,0x00,0x00,0x00,
0x00,0x00,0x00,0x00,0x10,0x00,0x00,0x00,0xaa,0x15,0xbd,0x3b,
0x44,0x7c,0xad,0x3b,0xad,0xe3,0xb8,0x3b,0x8f,0xf2,0x8c,0x3b,
0x75,0x0a,0xac,0x3b,0x3f,0xcd,0x05,0x3c,0xc2,0x2e,0x93,0x3b,
0x77,0x76,0xa4,0x3b,0x16,0x2c,0xc5,0x3b,0xae,0x9f,0x85,0x3b,
0xd9,0xa5,0xaf,0x3b,0xe8,0x76,0xa1,0x3b,0x10,0xca,0xb1,0x3b,
0x49,0xde,0xa7,0x3b,0x49,0xa1,0xcf,0x3b,0x88,0x0f,0x8c,0x3b,
0x12,0x00,0x00,0x00,0x74,0x66,0x6c,0x2e,0x70,0x73,0x65,0x75,
0x64,0x6f,0x5f,0x71,0x63,0x6f,0x6e,0x73,0x74,0x37,0x00,0x00,
0x02,0x00,0x00,0x00,0x10,0x00,0x00,0x00,0x09,0x00,0x00,0x00,
0x6e,0xfb,0xff,0xff,0x00,0x00,0x00,0x01,0x14,0x00,0x00,0x00,
0xe4,0x00,0x00,0x00,0x09,0x00,0x00,0x00,0x00,0x00,0x00,0x02,
0xf0,0x00,0x00,0x00,0xfc,0xfb,0xff,0xff,0x08,0x00,0x00,0x00,
0x88,0x00,0x00,0x00,0x10,0x00,0x00,0x00,0x00,0x00,0x00,0x00,
0x00,0x00,0x00,0x00,0x00,0x00,0x00,0x00,0x00,0x00,0x00,0x00,
0x00,0x00,0x00,0x00,0x00,0x00,0x00,0x00,0x00,0x00,0x00,0x00,
0x00,0x00,0x00,0x00,0x00,0x00,0x00,0x00,0x00,0x00,0x00,0x00,
0x00,0x00,0x00,0x00,0x00,0x00,0x00,0x00,0x00,0x00,0x00,0x00,
0x00,0x00,0x00,0x00,0x00,0x00,0x00,0x00,0x00,0x00,0x00,0x00,
0x00,0x00,0x00,0x00,0x00,0x00,0x00,0x00,0x00,0x00,0x00,0x00,
0x00,0x00,0x00,0x00,0x00,0x00,0x00,0x00,0x00,0x00,0x00,0x00,
0x00,0x00,0x00,0x00,0x00,0x00,0x00,0x00,0x00,0x00,0x00,0x00,
0x00,0x00,0x00,0x00,0x00,0x00,0x00,0x00,0x00,0x00,0x00,0x00,
0x00,0x00,0x00,0x00,0x00,0x00,0x00,0x00,0x00,0x00,0x00,0x00,
0x00,0x00,0x00,0x00,0x10,0x00,0x00,0x00,0xbc,0xa6,0x6d,0x39,
0xa0,0x0b,0x5a,0x39,0xe4,0x60,0x68,0x39,0x6b,0x26,0x31,0x39,
0xd5,0x3a,0x58,0x39,0x3f,0x2b,0xa8,0x39,0x9b,0xfc,0x38,0x39,
0x8c,0xb4,0x4e,0x39,0xf2,0xd0,0x77,0x39,0xfa,0xf1,0x27,0x39,
0x65,0xc3,0x5c,0x39,0xd7,0xef,0x4a,0x39,0x6c,0x74,0x5f,0x39,
0x4c,0xfc,0x52,0x39,0xe5,0x7a,0x82,0x39,0x15,0x09,0x30,0x39,
0x12,0x00,0x00,0x00,0x74,0x66,0x6c,0x2e,0x70,0x73,0x65,0x75,
0x64,0x6f,0x5f,0x71,0x63,0x6f,0x6e,0x73,0x74,0x36,0x00,0x00,
0x01,0x00,0x00,0x00,0x10,0x00,0x00,0x00,0x7e,0xfc,0xff,0xff,
0x00,0x00,0x00,0x01,0x14,0x00,0x00,0x00,0x88,0x00,0x00,0x00,
0x08,0x00,0x00,0x00,0x00,0x00,0x00,0x09,0x94,0x00,0x00,0x00,
0x0c,0xfd,0xff,0xff,0x08,0x00,0x00,0x00,0x4c,0x00,0x00,0x00,
0x08,0x00,0x00,0x00,0x00,0x00,0x00,0x00,0x00,0x00,0x00,0x00,
0x00,0x00,0x00,0x00,0x00,0x00,0x00,0x00,0x00,0x00,0x00,0x00,
0x00,0x00,0x00,0x00,0x00,0x00,0x00,0x00,0x00,0x00,0x00,0x00,
0x00,0x00,0x00,0x00,0x00,0x00,0x00,0x00,0x00,0x00,0x00,0x00,
0x00,0x00,0x00,0x00,0x00,0x00,0x00,0x00,0x00,0x00,0x00,0x00,
0x00,0x00,0x00,0x00,0x00,0x00,0x00,0x00,0x00,0x00,0x00,0x00,
0x08,0x00,0x00,0x00,0xab,0x06,0xbf,0x3b,0x85,0xc0,0xd6,0x3b,
0x14,0x03,0xa5,0x3b,0xda,0x2a,0x87,0x3b,0x74,0x1c,0xd4,0x3b,
0xcc,0x8d,0xe5,0x3b,0xa8,0xf3,0xd0,0x3b,0x3d,0x66,0xa1,0x3b,
0x12,0x00,0x00,0x00,0x74,0x66,0x6c,0x2e,0x70,0x73,0x65,0x75,
0x64,0x6f,0x5f,0x71,0x63,0x6f,0x6e,0x73,0x74,0x35,0x00,0x00,
0x02,0x00,0x00,0x00,0x08,0x00,0x00,0x00,0x10,0x00,0x00,0x00,
0x36,0xfd,0xff,0xff,0x00,0x00,0x00,0x01,0x14,0x00,0x00,0x00,
0x84,0x00,0x00,0x00,0x07,0x00,0x00,0x00,0x00,0x00,0x00,0x02,
0x90,0x00,0x00,0x00,0xc4,0xfd,0xff,0xff,0x08,0x00,0x00,0x00,
0x48,0x00,0x00,0x00,0x08,0x00,0x00,0x00,0x00,0x00,0x00,0x00,
0x00,0x00,0x00,0x00,0x00,0x00,0x00,0x00,0x00,0x00,0x00,0x00,
0x00,0x00,0x00,0x00,0x00,0x00,0x00,0x00,0x00,0x00,0x00,0x00,
0x00,0x00,0x00,0x00,0x00,0x00,0x00,0x00,0x00,0x00,0x00,0x00,
0x00,0x00,0x00,0x00,0x00,0x00,0x00,0x00,0x00,0x00,0x00,0x00,
0x00,0x00,0x00,0x00,0x00,0x00,0x00,0x00,0x00,0x00,0x00,0x00,
0x08,0x00,0x00,0x00,0xd2,0xc3,0x7f,0x39,0x0e,0xc4,0x8f,0x39,
0x4b,0xef,0x5c,0x39,0xc9,0xf9,0x34,0x39,0x76,0xff,0x8d,0x39,
0xc9,0xac,0x99,0x39,0x03,0xe2,0x8b,0x39,0x06,0x19,0x58,0x39,
0x12,0x00,0x00,0x00,0x74,0x66,0x6c,0x2e,0x70,0x73,0x65,0x75,
0x64,0x6f,0x5f,0x71,0x63,0x6f,0x6e,0x73,0x74,0x34,0x00,0x00,
0x01,0x00,0x00,0x00,0x08,0x00,0x00,0x00,0xe6,0xfd,0xff,0xff,
0x00,0x00,0x00,0x01,0x14,0x00,0x00,0x00,0x58,0x00,0x00,0x00,
0x06,0x00,0x00,0x00,0x00,0x00,0x00,0x09,0x64,0x00,0x00,0x00,
0x74,0xfe,0xff,0xff,0x08,0x00,0x00,0x00,0x2c,0x00,0x00,0x00,
0x04,0x00,0x00,0x00,0x00,0x00,0x00,0x00,0x00,0x00,0x00,0x00,
0x00,0x00,0x00,0x00,0x00,0x00,0x00,0x00,0x00,0x00,0x00,0x00,
0x00,0x00,0x00,0x00,0x00,0x00,0x00,0x00,0x00,0x00,0x00,0x00,
0x00,0x00,0x00,0x00,0x04,0x00,0x00,0x00,0x01,0x25,0xec,0x3b,
0x2c,0x64,0xed,0x3b,0x08,0x4a,0xe5,0x3b,0x41,0x7c,0xe2,0x3b,
0x12,0x00,0x00,0x00,0x74,0x66,0x6c,0x2e,0x70,0x73,0x65,0x75,
0x64,0x6f,0x5f,0x71,0x63,0x6f,0x6e,0x73,0x74,0x33,0x00,0x00,
0x02,0x00,0x00,0x00,0x04,0x00,0x00,0x00,0x08,0x00,0x00,0x00,
0x6e,0xfe,0xff,0xff,0x00,0x00,0x00,0x01,0x14,0x00,0x00,0x00,
0x54,0x00,0x00,0x00,0x05,0x00,0x00,0x00,0x00,0x00,0x00,0x02,
0x60,0x00,0x00,0x00,0xfc,0xfe,0xff,0xff,0x08,0x00,0x00,0x00,
0x28,0x00,0x00,0x00,0x04,0x00,0x00,0x00,0x00,0x00,0x00,0x00,
0x00,0x00,0x00,0x00,0x00,0x00,0x00,0x00,0x00,0x00,0x00,0x00,
0x00,0x00,0x00,0x00,0x00,0x00,0x00,0x00,0x00,0x00,0x00,0x00,
0x00,0x00,0x00,0x00,0x04,0x00,0x00,0x00,0x79,0xbe,0xcb,0x39,
0xda,0xd1,0xcc,0x39,0x4b,0xd4,0xc5,0x39,0x00,0x69,0xc3,0x39,
0x12,0x00,0x00,0x00,0x74,0x66,0x6c,0x2e,0x70,0x73,0x65,0x75,
0x64,0x6f,0x5f,0x71,0x63,0x6f,0x6e,0x73,0x74,0x32,0x00,0x00,
0x01,0x00,0x00,0x00,0x04,0x00,0x00,0x00,0xee,0xfe,0xff,0xff,
0x00,0x00,0x00,0x01,0x14,0x00,0x00,0x00,0x54,0x00,0x00,0x00,
0x04,0x00,0x00,0x00,0x00,0x00,0x00,0x09,0x60,0x00,0x00,0x00,
0x7c,0xff,0xff,0xff,0x08,0x00,0x00,0x00,0x28,0x00,0x00,0x00,
0x04,0x00,0x00,0x00,0x00,0x00,0x00,0x00,0x00,0x00,0x00,0x00,
0x00,0x00,0x00,0x00,0x00,0x00,0x00,0x00,0x00,0x00,0x00,0x00,
0x00,0x00,0x00,0x00,0x00,0x00,0x00,0x00,0x00,0x00,0x00,0x00,
0x04,0x00,0x00,0x00,0xca,0xca,0x0a,0x3c,0x3a,0x59,0x28,0x3c,
0xd3,0x53,0x00,0x3c,0x7e,0x94,0xe8,0x3b,0x12,0x00,0x00,0x00,
0x74,0x66,0x6c,0x2e,0x70,0x73,0x65,0x75,0x64,0x6f,0x5f,0x71,
0x63,0x6f,0x6e,0x73,0x74,0x31,0x00,0x00,0x02,0x00,0x00,0x00,
0x04,0x00,0x00,0x00,0x04,0x00,0x00,0x00,0x72,0xff,0xff,0xff,
0x00,0x00,0x00,0x01,0x20,0x00,0x00,0x00,0x60,0x00,0x00,0x00,
0x03,0x00,0x00,0x00,0x00,0x00,0x00,0x02,0x6c,0x00,0x00,0x00,
0x0c,0x00,0x0c,0x00,0x00,0x00,0x00,0x00,0x08,0x00,0x04,0x00,
0x0c,0x00,0x00,0x00,0x08,0x00,0x00,0x00,0x28,0x00,0x00,0x00,
0x04,0x00,0x00,0x00,0x00,0x00,0x00,0x00,0x00,0x00,0x00,0x00,
0x00,0x00,0x00,0x00,0x00,0x00,0x00,0x00,0x00,0x00,0x00,0x00,
0x00,0x00,0x00,0x00,0x00,0x00,0x00,0x00,0x00,0x00,0x00,0x00,
0x04,0x00,0x00,0x00,0x87,0x9e,0x34,0x3a,0x39,0x15,0x5b,0x3a,
0x37,0x00,0x27,0x3a,0xf5,0x55,0x17,0x3a,0x11,0x00,0x00,0x00,
0x74,0x66,0x6c,0x2e,0x70,0x73,0x65,0x75,0x64,0x6f,0x5f,0x71,
0x63,0x6f,0x6e,0x73,0x74,0x00,0x00,0x00,0x01,0x00,0x00,0x00,
0x04,0x00,0x00,0x00,0x00,0x00,0x16,0x00,0x1c,0x00,0x18,0x00,
0x17,0x00,0x10,0x00,0x0c,0x00,0x08,0x00,0x00,0x00,0x00,0x00,
0x00,0x00,0x07,0x00,0x16,0x00,0x00,0x00,0x00,0x00,0x00,0x01,
0x14,0x00,0x00,0x00,0x14,0x00,0x00,0x00,0x02,0x00,0x00,0x00,
0x00,0x00,0x00,0x02,0x1c,0x00,0x00,0x00,0xa0,0xff,0xff,0xff,
0x0e,0x00,0x00,0x00,0x61,0x72,0x69,0x74,0x68,0x2e,0x63,0x6f,
0x6e,0x73,0x74,0x61,0x6e,0x74,0x00,0x00,0x01,0x00,0x00,0x00,
0x02,0x00,0x00,0x00,0x00,0x00,0x16,0x00,0x1c,0x00,0x18,0x00,
0x00,0x00,0x14,0x00,0x10,0x00,0x0c,0x00,0x00,0x00,0x00,0x00,
0x08,0x00,0x07,0x00,0x16,0x00,0x00,0x00,0x00,0x00,0x00,0x01,
0x14,0x00,0x00,0x00,0x20,0x00,0x00,0x00,0x20,0x00,0x00,0x00,
0x01,0x00,0x00,0x00,0x3c,0x00,0x00,0x00,0x02,0x00,0x00,0x00,
0xff,0xff,0xff,0xff,0x09,0x00,0x00,0x00,0x04,0x00,0x04,0x00,
0x04,0x00,0x00,0x00,0x1e,0x00,0x00,0x00,0x73,0x65,0x72,0x76,
0x69,0x6e,0x67,0x5f,0x64,0x65,0x66,0x61,0x75,0x6c,0x74,0x5f,
0x6b,0x65,0x72,0x61,0x73,0x5f,0x74,0x65,0x6e,0x73,0x6f,0x72,
0x3a,0x30,0x00,0x00,0x02,0x00,0x00,0x00,0x01,0x00,0x00,0x00,
0x09,0x00,0x00,0x00,0x05,0x00,0x00,0x00,0x68,0x00,0x00,0x00,
0x4c,0x00,0x00,0x00,0x38,0x00,0x00,0x00,0x18,0x00,0x00,0x00,
0x04,0x00,0x00,0x00,0xe0,0xff,0xff,0xff,0x06,0x00,0x00,0x00,
0x02,0x00,0x00,0x00,0x00,0x00,0x00,0x06,0xf0,0xff,0xff,0xff,
0x19,0x00,0x00,0x00,0x02,0x00,0x00,0x00,0x00,0x00,0x00,0x19,
0x0c,0x00,0x10,0x00,0x0f,0x00,0x00,0x00,0x08,0x00,0x04,0x00,
0x0c,0x00,0x00,0x00,0x09,0x00,0x00,0x00,0x04,0x00,0x00,0x00,
0x00,0x00,0x00,0x09,0xf4,0xff,0xff,0xff,0x16,0x00,0x00,0x00,
0x00,0x00,0x00,0x16,0x0c,0x00,0x0c,0x00,0x0b,0x00,0x00,0x00,
0x00,0x00,0x04,0x00,0x0c,0x00,0x00,0x00,0x72,0x00,0x00,0x00,
0x00,0x00,0x00,0x72
};

#endif //FOREST_MODEL_ESP32_H